#ifndef ULTASONIC_FLOW_MODEL_ESP32_H
#define ULTASONIC_FLOW_MODEL_ESP32_H

/*
 Author: Smaran Rangarajan Bharadwaj ft. Mouli Sankaran 
 CAUTION: This is an auto generated file.
 DO NOT EDIT OR MAKE ANY CHANGES TO IT.
 This model data was generated on Sat Nov  2 09:10:45 2024

 Tools used:
 Python:3.8.15 | packaged by conda-forge | (default, Nov 22 2022, 08:52:09) 
[Clang 14.0.6 ]
 Numpy:1.19.5
 TensorFlow:3.8.15 | packaged by conda-forge | (default, Nov 22 2022, 08:52:09) 
[Clang 14.0.6 ]
 Keras: 2.6.0

 Model details are:
 NUM_OF_EPOCHS = 300
 BATCH_SIZE    = 2
*/

const int DENSE1_SIZE = 24;
const int DENSE2_SIZE = 18;
const int DENSE3_SIZE = 12;

const unsigned int ultasonic_flow_model_esp32_len = 4840;
alignas(8) const unsigned char ultasonic_flow_model_esp32[] = {
0x1c,0x00,0x00,0x00,0x54,0x46,0x4c,0x33,0x14,0x00,0x20,0x00,
0x04,0x00,0x08,0x00,0x0c,0x00,0x10,0x00,0x14,0x00,0x00,0x00,
0x18,0x00,0x1c,0x00,0x14,0x00,0x00,0x00,0x03,0x00,0x00,0x00,
0x74,0x00,0x00,0x00,0x68,0x00,0x00,0x00,0x5c,0x01,0x00,0x00,
0x0c,0x00,0x00,0x00,0x04,0x01,0x00,0x00,0x78,0x00,0x00,0x00,
0x14,0x00,0x00,0x00,0xa4,0x12,0x00,0x00,0xa0,0x12,0x00,0x00,
0xc8,0x11,0x00,0x00,0xbc,0x0e,0x00,0x00,0xfc,0x0d,0x00,0x00,
0xd4,0x0b,0x00,0x00,0x28,0x0b,0x00,0x00,0xdc,0x09,0x00,0x00,
0x48,0x09,0x00,0x00,0xa4,0x08,0x00,0x00,0x30,0x08,0x00,0x00,
0x78,0x12,0x00,0x00,0x74,0x12,0x00,0x00,0x70,0x12,0x00,0x00,
0x6c,0x12,0x00,0x00,0x68,0x12,0x00,0x00,0x64,0x12,0x00,0x00,
0x60,0x12,0x00,0x00,0x5c,0x12,0x00,0x00,0xe0,0x00,0x00,0x00,
0x01,0x00,0x00,0x00,0x18,0x01,0x00,0x00,0x05,0x00,0x00,0x00,
0x70,0x07,0x00,0x00,0xb4,0x06,0x00,0x00,0xcc,0x05,0x00,0x00,
0x5c,0x02,0x00,0x00,0xc4,0x01,0x00,0x00,0x01,0x00,0x00,0x00,
0x10,0x00,0x00,0x00,0x0c,0x00,0x14,0x00,0x10,0x00,0x0c,0x00,
0x08,0x00,0x04,0x00,0x0c,0x00,0x00,0x00,0x10,0x00,0x00,0x00,
0x14,0x00,0x00,0x00,0x24,0x00,0x00,0x00,0x28,0x00,0x00,0x00,
0x00,0x00,0x00,0x00,0x00,0x00,0x00,0x00,0x0f,0x00,0x00,0x00,
0x73,0x65,0x72,0x76,0x69,0x6e,0x67,0x5f,0x64,0x65,0x66,0x61,
0x75,0x6c,0x74,0x00,0x01,0x00,0x00,0x00,0x14,0x00,0x00,0x00,
0x01,0x00,0x00,0x00,0x24,0x00,0x00,0x00,0x08,0x00,0x0c,0x00,
0x08,0x00,0x04,0x00,0x08,0x00,0x00,0x00,0x11,0x00,0x00,0x00,
0x04,0x00,0x00,0x00,0x07,0x00,0x00,0x00,0x64,0x65,0x6e,0x73,
0x65,0x5f,0x33,0x00,0x1a,0xef,0xff,0xff,0x04,0x00,0x00,0x00,
0x07,0x00,0x00,0x00,0x69,0x6e,0x70,0x75,0x74,0x5f,0x31,0x00,
0x01,0x00,0x00,0x00,0x0c,0x00,0x00,0x00,0x08,0x00,0x0c,0x00,
0x04,0x00,0x08,0x00,0x08,0x00,0x00,0x00,0x08,0x00,0x00,0x00,
0x13,0x00,0x00,0x00,0x13,0x00,0x00,0x00,0x6d,0x69,0x6e,0x5f,
0x72,0x75,0x6e,0x74,0x69,0x6d,0x65,0x5f,0x76,0x65,0x72,0x73,
0x69,0x6f,0x6e,0x00,0x62,0xef,0xff,0xff,0x04,0x00,0x00,0x00,
0x10,0x00,0x00,0x00,0x31,0x2e,0x31,0x34,0x2e,0x30,0x00,0x00,
0x00,0x00,0x00,0x00,0x00,0x00,0x00,0x00,0x0f,0x00,0x00,0x00,
0x4d,0x4c,0x49,0x52,0x20,0x43,0x6f,0x6e,0x76,0x65,0x72,0x74,
0x65,0x64,0x2e,0x00,0x00,0x00,0x0e,0x00,0x18,0x00,0x04,0x00,
0x08,0x00,0x0c,0x00,0x10,0x00,0x14,0x00,0x0e,0x00,0x00,0x00,
0x54,0x00,0x00,0x00,0x48,0x00,0x00,0x00,0x3c,0x00,0x00,0x00,
0x14,0x00,0x00,0x00,0x04,0x00,0x00,0x00,0x04,0x00,0x00,0x00,
0x6d,0x61,0x69,0x6e,0x00,0x00,0x00,0x00,0x08,0x00,0x00,0x00,
0x10,0x06,0x00,0x00,0x58,0x05,0x00,0x00,0x54,0x04,0x00,0x00,
0x60,0x03,0x00,0x00,0x6c,0x02,0x00,0x00,0xa4,0x01,0x00,0x00,
0xe8,0x00,0x00,0x00,0x60,0x00,0x00,0x00,0x01,0x00,0x00,0x00,
0x11,0x00,0x00,0x00,0x01,0x00,0x00,0x00,0x00,0x00,0x00,0x00,
0x12,0x00,0x00,0x00,0x84,0x10,0x00,0x00,0x28,0x10,0x00,0x00,
0x8c,0x0f,0x00,0x00,0xa4,0x0c,0x00,0x00,0xcc,0x0b,0x00,0x00,
0xb8,0x09,0x00,0x00,0xfc,0x08,0x00,0x00,0xc0,0x07,0x00,0x00,
0x1c,0x07,0x00,0x00,0x88,0x06,0x00,0x00,0x00,0x06,0x00,0x00,
0x30,0x05,0x00,0x00,0x48,0x04,0x00,0x00,0x3c,0x03,0x00,0x00,
0x48,0x02,0x00,0x00,0x7c,0x01,0x00,0x00,0xcc,0x00,0x00,0x00,
0x34,0x00,0x00,0x00,0x2a,0xfb,0xff,0xff,0x04,0x00,0x00,0x00,
0x10,0x00,0x00,0x00,0x04,0x00,0x00,0x00,0x01,0x00,0x00,0x00,
0x11,0x00,0x00,0x00,0x01,0x00,0x00,0x00,0x10,0x00,0x00,0x00,
0x70,0xfa,0xff,0xff,0x06,0x00,0x00,0x00,0x00,0x00,0x00,0x06,
0x02,0x00,0x00,0x00,0x08,0xf0,0xff,0xff,0x40,0x00,0x00,0x00,
0x12,0x00,0x00,0x00,0x18,0x00,0x00,0x00,0x40,0x00,0x00,0x00,
0x04,0x00,0x00,0x00,0x02,0x00,0x00,0x00,0xff,0xff,0xff,0xff,
0x04,0x00,0x00,0x00,0x19,0x00,0x00,0x00,0x53,0x74,0x61,0x74,
0x65,0x66,0x75,0x6c,0x50,0x61,0x72,0x74,0x69,0x74,0x69,0x6f,
0x6e,0x65,0x64,0x43,0x61,0x6c,0x6c,0x3a,0x30,0x00,0x00,0x00,
0x02,0x00,0x00,0x00,0x01,0x00,0x00,0x00,0x04,0x00,0x00,0x00,
0xf0,0xef,0xff,0xff,0xa2,0xfd,0xff,0xff,0x00,0x00,0x00,0x09,
0x03,0x00,0x00,0x00,0x1c,0x00,0x00,0x00,0x10,0x00,0x00,0x00,
0x04,0x00,0x00,0x00,0xe2,0xf0,0xff,0xff,0x00,0x00,0x80,0x3f,
0x01,0x00,0x00,0x00,0x10,0x00,0x00,0x00,0x01,0x00,0x00,0x00,
0x0f,0x00,0x00,0x00,0x04,0xfb,0xff,0xff,0x19,0x00,0x00,0x00,
0x00,0x00,0x00,0x19,0x02,0x00,0x00,0x00,0xf8,0xfa,0xff,0xff,
0x00,0x00,0x00,0x09,0x40,0x00,0x00,0x00,0x11,0x00,0x00,0x00,
0x18,0x00,0x00,0x00,0x40,0x00,0x00,0x00,0x04,0x00,0x00,0x00,
0x02,0x00,0x00,0x00,0xff,0xff,0xff,0xff,0x04,0x00,0x00,0x00,
0x1a,0x00,0x00,0x00,0x53,0x74,0x61,0x74,0x65,0x66,0x75,0x6c,
0x50,0x61,0x72,0x74,0x69,0x74,0x69,0x6f,0x6e,0x65,0x64,0x43,
0x61,0x6c,0x6c,0x3a,0x30,0x31,0x00,0x00,0x02,0x00,0x00,0x00,
0x01,0x00,0x00,0x00,0x04,0x00,0x00,0x00,0x8c,0xf1,0xff,0xff,
0x18,0x00,0x00,0x00,0x04,0x00,0x00,0x00,0x01,0x00,0x00,0x00,
0x80,0xff,0xff,0xff,0xff,0xff,0xff,0xff,0x00,0x00,0x00,0x00,
0x01,0x00,0x00,0x00,0x00,0x00,0x80,0x3b,0x5a,0xfe,0xff,0xff,
0x00,0x00,0x00,0x08,0x02,0x00,0x00,0x00,0x18,0x00,0x00,0x00,
0x0c,0x00,0x00,0x00,0x04,0x00,0x00,0x00,0xc4,0xf0,0xff,0xff,
0x01,0x00,0x00,0x00,0x0f,0x00,0x00,0x00,0x03,0x00,0x00,0x00,
0x0e,0x00,0x00,0x00,0x08,0x00,0x00,0x00,0x09,0x00,0x00,0x00,
0xa4,0xfb,0xff,0xff,0x00,0x00,0x00,0x09,0x5c,0x00,0x00,0x00,
0x10,0x00,0x00,0x00,0x18,0x00,0x00,0x00,0x5c,0x00,0x00,0x00,
0x04,0x00,0x00,0x00,0x02,0x00,0x00,0x00,0xff,0xff,0xff,0xff,
0x04,0x00,0x00,0x00,0x34,0x00,0x00,0x00,0x73,0x65,0x71,0x75,
0x65,0x6e,0x74,0x69,0x61,0x6c,0x2f,0x64,0x65,0x6e,0x73,0x65,
0x5f,0x33,0x2f,0x4d,0x61,0x74,0x4d,0x75,0x6c,0x3b,0x73,0x65,
0x71,0x75,0x65,0x6e,0x74,0x69,0x61,0x6c,0x2f,0x64,0x65,0x6e,
0x73,0x65,0x5f,0x33,0x2f,0x42,0x69,0x61,0x73,0x41,0x64,0x64,
0x00,0x00,0x00,0x00,0x02,0x00,0x00,0x00,0x01,0x00,0x00,0x00,
0x04,0x00,0x00,0x00,0x54,0xf2,0xff,0xff,0x14,0x00,0x00,0x00,
0x04,0x00,0x00,0x00,0x01,0x00,0x00,0x00,0x14,0x00,0x00,0x00,
0x00,0x00,0x00,0x00,0x01,0x00,0x00,0x00,0x46,0x77,0x7e,0x3f,
0x1e,0xff,0xff,0xff,0x00,0x00,0x00,0x08,0x02,0x00,0x00,0x00,
0x1c,0x00,0x00,0x00,0x10,0x00,0x00,0x00,0x04,0x00,0x00,0x00,
0x1e,0xfe,0xff,0xff,0x00,0x00,0x00,0x01,0x01,0x00,0x00,0x00,
0x0e,0x00,0x00,0x00,0x03,0x00,0x00,0x00,0x0d,0x00,0x00,0x00,
0x06,0x00,0x00,0x00,0x07,0x00,0x00,0x00,0x6c,0xfc,0xff,0xff,
0x00,0x00,0x00,0x09,0x74,0x00,0x00,0x00,0x0f,0x00,0x00,0x00,
0x18,0x00,0x00,0x00,0x74,0x00,0x00,0x00,0x04,0x00,0x00,0x00,
0x02,0x00,0x00,0x00,0xff,0xff,0xff,0xff,0x0c,0x00,0x00,0x00,
0x4c,0x00,0x00,0x00,0x73,0x65,0x71,0x75,0x65,0x6e,0x74,0x69,
0x61,0x6c,0x2f,0x64,0x65,0x6e,0x73,0x65,0x5f,0x32,0x2f,0x4d,
0x61,0x74,0x4d,0x75,0x6c,0x3b,0x73,0x65,0x71,0x75,0x65,0x6e,
0x74,0x69,0x61,0x6c,0x2f,0x64,0x65,0x6e,0x73,0x65,0x5f,0x32,
0x2f,0x52,0x65,0x6c,0x75,0x3b,0x73,0x65,0x71,0x75,0x65,0x6e,
0x74,0x69,0x61,0x6c,0x2f,0x64,0x65,0x6e,0x73,0x65,0x5f,0x32,
0x2f,0x42,0x69,0x61,0x73,0x41,0x64,0x64,0x00,0x00,0x00,0x00,
0x02,0x00,0x00,0x00,0x01,0x00,0x00,0x00,0x0c,0x00,0x00,0x00,
0x34,0xf3,0xff,0xff,0x14,0x00,0x00,0x00,0x04,0x00,0x00,0x00,
0x01,0x00,0x00,0x00,0x80,0xff,0xff,0xff,0xff,0xff,0xff,0xff,
0x01,0x00,0x00,0x00,0x01,0xd1,0x40,0x3f,0x00,0x00,0x0e,0x00,
0x18,0x00,0x08,0x00,0x0c,0x00,0x10,0x00,0x07,0x00,0x14,0x00,
0x0e,0x00,0x00,0x00,0x00,0x00,0x00,0x08,0x02,0x00,0x00,0x00,
0x1c,0x00,0x00,0x00,0x10,0x00,0x00,0x00,0x04,0x00,0x00,0x00,
0x0e,0xff,0xff,0xff,0x00,0x00,0x00,0x01,0x01,0x00,0x00,0x00,
0x0d,0x00,0x00,0x00,0x03,0x00,0x00,0x00,0x0c,0x00,0x00,0x00,
0x04,0x00,0x00,0x00,0x05,0x00,0x00,0x00,0x5c,0xfd,0xff,0xff,
0x00,0x00,0x00,0x09,0x74,0x00,0x00,0x00,0x0e,0x00,0x00,0x00,
0x18,0x00,0x00,0x00,0x74,0x00,0x00,0x00,0x04,0x00,0x00,0x00,
0x02,0x00,0x00,0x00,0xff,0xff,0xff,0xff,0x12,0x00,0x00,0x00,
0x4c,0x00,0x00,0x00,0x73,0x65,0x71,0x75,0x65,0x6e,0x74,0x69,
0x61,0x6c,0x2f,0x64,0x65,0x6e,0x73,0x65,0x5f,0x31,0x2f,0x4d,
0x61,0x74,0x4d,0x75,0x6c,0x3b,0x73,0x65,0x71,0x75,0x65,0x6e,
0x74,0x69,0x61,0x6c,0x2f,0x64,0x65,0x6e,0x73,0x65,0x5f,0x31,
0x2f,0x52,0x65,0x6c,0x75,0x3b,0x73,0x65,0x71,0x75,0x65,0x6e,
0x74,0x69,0x61,0x6c,0x2f,0x64,0x65,0x6e,0x73,0x65,0x5f,0x31,
0x2f,0x42,0x69,0x61,0x73,0x41,0x64,0x64,0x00,0x00,0x00,0x00,
0x02,0x00,0x00,0x00,0x01,0x00,0x00,0x00,0x12,0x00,0x00,0x00,
0x24,0xf4,0xff,0xff,0x14,0x00,0x00,0x00,0x04,0x00,0x00,0x00,
0x01,0x00,0x00,0x00,0x80,0xff,0xff,0xff,0xff,0xff,0xff,0xff,
0x01,0x00,0x00,0x00,0x04,0x00,0x37,0x3f,0x00,0x00,0x0e,0x00,
0x1a,0x00,0x08,0x00,0x0c,0x00,0x10,0x00,0x07,0x00,0x14,0x00,
0x0e,0x00,0x00,0x00,0x00,0x00,0x00,0x08,0x02,0x00,0x00,0x00,
0x24,0x00,0x00,0x00,0x18,0x00,0x00,0x00,0x0c,0x00,0x00,0x00,
0x00,0x00,0x06,0x00,0x08,0x00,0x07,0x00,0x06,0x00,0x00,0x00,
0x00,0x00,0x00,0x01,0x01,0x00,0x00,0x00,0x0c,0x00,0x00,0x00,
0x03,0x00,0x00,0x00,0x0b,0x00,0x00,0x00,0x02,0x00,0x00,0x00,
0x03,0x00,0x00,0x00,0x70,0xfe,0xff,0xff,0x09,0x00,0x00,0x00,
0x00,0x00,0x00,0x09,0x04,0x00,0x00,0x00,0x64,0xfe,0xff,0xff,
0x00,0x00,0x00,0x09,0x6c,0x00,0x00,0x00,0x0d,0x00,0x00,0x00,
0x18,0x00,0x00,0x00,0x6c,0x00,0x00,0x00,0x04,0x00,0x00,0x00,
0x02,0x00,0x00,0x00,0xff,0xff,0xff,0xff,0x18,0x00,0x00,0x00,
0x46,0x00,0x00,0x00,0x73,0x65,0x71,0x75,0x65,0x6e,0x74,0x69,
0x61,0x6c,0x2f,0x64,0x65,0x6e,0x73,0x65,0x2f,0x4d,0x61,0x74,
0x4d,0x75,0x6c,0x3b,0x73,0x65,0x71,0x75,0x65,0x6e,0x74,0x69,
0x61,0x6c,0x2f,0x64,0x65,0x6e,0x73,0x65,0x2f,0x52,0x65,0x6c,
0x75,0x3b,0x73,0x65,0x71,0x75,0x65,0x6e,0x74,0x69,0x61,0x6c,
0x2f,0x64,0x65,0x6e,0x73,0x65,0x2f,0x42,0x69,0x61,0x73,0x41,
0x64,0x64,0x00,0x00,0x02,0x00,0x00,0x00,0x01,0x00,0x00,0x00,
0x18,0x00,0x00,0x00,0x24,0xf5,0xff,0xff,0x18,0x00,0x00,0x00,
0x04,0x00,0x00,0x00,0x01,0x00,0x00,0x00,0x80,0xff,0xff,0xff,
0xff,0xff,0xff,0xff,0x00,0x00,0x00,0x00,0x01,0x00,0x00,0x00,
0x40,0xb1,0x1c,0x3f,0x00,0x00,0x0a,0x00,0x10,0x00,0x04,0x00,
0x08,0x00,0x0c,0x00,0x0a,0x00,0x00,0x00,0x01,0x00,0x00,0x00,
0x10,0x00,0x00,0x00,0x04,0x00,0x00,0x00,0x01,0x00,0x00,0x00,
0x0b,0x00,0x00,0x00,0x02,0x00,0x00,0x00,0x0a,0x00,0x00,0x00,
0x01,0x00,0x00,0x00,0x54,0xff,0xff,0xff,0x16,0x00,0x00,0x00,
0x00,0x00,0x00,0x16,0x01,0x00,0x00,0x00,0x48,0xff,0xff,0xff,
0x00,0x00,0x00,0x09,0x40,0x00,0x00,0x00,0x0c,0x00,0x00,0x00,
0x18,0x00,0x00,0x00,0x40,0x00,0x00,0x00,0x04,0x00,0x00,0x00,
0x02,0x00,0x00,0x00,0xff,0xff,0xff,0xff,0x1b,0x00,0x00,0x00,
0x1a,0x00,0x00,0x00,0x73,0x65,0x71,0x75,0x65,0x6e,0x74,0x69,
0x61,0x6c,0x2f,0x66,0x6c,0x61,0x74,0x74,0x65,0x6e,0x2f,0x52,
0x65,0x73,0x68,0x61,0x70,0x65,0x00,0x00,0x02,0x00,0x00,0x00,
0x01,0x00,0x00,0x00,0x1b,0x00,0x00,0x00,0xdc,0xf5,0xff,0xff,
0x14,0x00,0x00,0x00,0x04,0x00,0x00,0x00,0x01,0x00,0x00,0x00,
0x08,0x00,0x00,0x00,0x00,0x00,0x00,0x00,0x01,0x00,0x00,0x00,
0xe7,0x0f,0xa3,0x3f,0x00,0x00,0x0a,0x00,0x0c,0x00,0x00,0x00,
0x04,0x00,0x08,0x00,0x0a,0x00,0x00,0x00,0x10,0x00,0x00,0x00,
0x04,0x00,0x00,0x00,0x01,0x00,0x00,0x00,0x0a,0x00,0x00,0x00,
0x01,0x00,0x00,0x00,0x00,0x00,0x00,0x00,0x0c,0x00,0x10,0x00,
0x0b,0x00,0x00,0x00,0x0c,0x00,0x04,0x00,0x0c,0x00,0x00,0x00,
0x72,0x00,0x00,0x00,0x00,0x00,0x00,0x72,0x01,0x00,0x00,0x00,
0x14,0x00,0x1c,0x00,0x08,0x00,0x07,0x00,0x0c,0x00,0x10,0x00,
0x14,0x00,0x00,0x00,0x00,0x00,0x18,0x00,0x14,0x00,0x00,0x00,
0x00,0x00,0x00,0x09,0x34,0x00,0x00,0x00,0x0b,0x00,0x00,0x00,
0x18,0x00,0x00,0x00,0x34,0x00,0x00,0x00,0x04,0x00,0x00,0x00,
0x02,0x00,0x00,0x00,0xff,0xff,0xff,0xff,0x1b,0x00,0x00,0x00,
0x0c,0x00,0x00,0x00,0x74,0x66,0x6c,0x2e,0x71,0x75,0x61,0x6e,
0x74,0x69,0x7a,0x65,0x00,0x00,0x00,0x00,0x02,0x00,0x00,0x00,
0x01,0x00,0x00,0x00,0x1b,0x00,0x00,0x00,0x9c,0xf6,0xff,0xff,
0x14,0x00,0x00,0x00,0x04,0x00,0x00,0x00,0x01,0x00,0x00,0x00,
0x08,0x00,0x00,0x00,0x00,0x00,0x00,0x00,0x01,0x00,0x00,0x00,
0xe7,0x0f,0xa3,0x3f,0x8e,0xf6,0xff,0xff,0x04,0x00,0x00,0x00,
0x10,0x00,0x00,0x00,0x01,0x00,0x00,0x00,0x47,0x00,0x00,0x00,
0x05,0x00,0x00,0x00,0xb6,0xff,0xff,0xff,0x8e,0xf6,0xff,0xff,
0x00,0x00,0x00,0x02,0x24,0x00,0x00,0x00,0x0a,0x00,0x00,0x00,
0x08,0x00,0x00,0x00,0x20,0x00,0x00,0x00,0x0c,0x00,0x00,0x00,
0x64,0x65,0x6e,0x73,0x65,0x5f,0x33,0x2f,0x62,0x69,0x61,0x73,
0x00,0x00,0x00,0x00,0x01,0x00,0x00,0x00,0x04,0x00,0x00,0x00,
0x0c,0xf7,0xff,0xff,0x14,0x00,0x00,0x00,0x04,0x00,0x00,0x00,
0x01,0x00,0x00,0x00,0x00,0x00,0x00,0x00,0x00,0x00,0x00,0x00,
0x01,0x00,0x00,0x00,0xbb,0x07,0x15,0x3c,0xfe,0xf6,0xff,0xff,
0x04,0x00,0x00,0x00,0x30,0x00,0x00,0x00,0x2e,0xf3,0xf4,0x19,
0xb8,0xc6,0x36,0xd2,0x0d,0x3f,0xb2,0x2e,0x13,0x3b,0xdd,0x81,
0xbc,0x1a,0x59,0xe1,0x9e,0xcc,0x3f,0x23,0xb5,0xf2,0xde,0x42,
0x19,0x21,0xba,0x29,0x11,0xe9,0x05,0x1a,0x22,0x03,0x15,0xa9,
0xf2,0x05,0xfb,0x0a,0xe0,0x0a,0xda,0xfa,0x1e,0xf7,0xff,0xff,
0x00,0x00,0x00,0x09,0x30,0x00,0x00,0x00,0x09,0x00,0x00,0x00,
0x08,0x00,0x00,0x00,0x30,0x00,0x00,0x00,0x19,0x00,0x00,0x00,
0x73,0x65,0x71,0x75,0x65,0x6e,0x74,0x69,0x61,0x6c,0x2f,0x64,
0x65,0x6e,0x73,0x65,0x5f,0x33,0x2f,0x4d,0x61,0x74,0x4d,0x75,
0x6c,0x00,0x00,0x00,0x02,0x00,0x00,0x00,0x04,0x00,0x00,0x00,
0x0c,0x00,0x00,0x00,0xac,0xf7,0xff,0xff,0x14,0x00,0x00,0x00,
0x04,0x00,0x00,0x00,0x01,0x00,0x00,0x00,0x00,0x00,0x00,0x00,
0x00,0x00,0x00,0x00,0x01,0x00,0x00,0x00,0x96,0xdd,0x45,0x3c,
0x9e,0xf7,0xff,0xff,0x04,0x00,0x00,0x00,0x30,0x00,0x00,0x00,
0xfe,0xff,0xff,0xff,0x3e,0x00,0x00,0x00,0xd8,0xff,0xff,0xff,
0x29,0x00,0x00,0x00,0x06,0x00,0x00,0x00,0x13,0x00,0x00,0x00,
0x0c,0x00,0x00,0x00,0xfd,0xff,0xff,0xff,0x18,0x00,0x00,0x00,
0x0b,0x00,0x00,0x00,0x40,0x00,0x00,0x00,0xfc,0xff,0xff,0xff,
0xbe,0xf7,0xff,0xff,0x00,0x00,0x00,0x02,0x24,0x00,0x00,0x00,
0x08,0x00,0x00,0x00,0x08,0x00,0x00,0x00,0x20,0x00,0x00,0x00,
0x0c,0x00,0x00,0x00,0x64,0x65,0x6e,0x73,0x65,0x5f,0x32,0x2f,
0x62,0x69,0x61,0x73,0x00,0x00,0x00,0x00,0x01,0x00,0x00,0x00,
0x0c,0x00,0x00,0x00,0x3c,0xf8,0xff,0xff,0x14,0x00,0x00,0x00,
0x04,0x00,0x00,0x00,0x01,0x00,0x00,0x00,0x00,0x00,0x00,0x00,
0x00,0x00,0x00,0x00,0x01,0x00,0x00,0x00,0x82,0x0a,0x24,0x3c,
0x2e,0xf8,0xff,0xff,0x04,0x00,0x00,0x00,0xd8,0x00,0x00,0x00,
0x2d,0xef,0xf3,0x11,0xf0,0x81,0x74,0x7a,0x24,0x28,0x17,0xdc,
0xf7,0xf2,0x16,0x0e,0x13,0xad,0xf2,0xfc,0x0f,0x18,0x06,0xf9,
0x51,0xdc,0x11,0x03,0x0f,0x22,0xff,0xaa,0x18,0x03,0xfb,0x1f,
0x29,0x1f,0x07,0x20,0x1c,0x05,0xf5,0x07,0x22,0xeb,0xe9,0x05,
0xf8,0xe0,0xef,0x27,0x13,0xfd,0xec,0x16,0x53,0xd0,0x0e,0x41,
0xe7,0xcf,0x0f,0xd2,0xfd,0x45,0xef,0x69,0x03,0x10,0xf1,0xef,
0xe1,0xe7,0x17,0xf9,0xf9,0x38,0xc9,0xd6,0x15,0xf2,0x14,0x07,
0x0f,0x21,0xf5,0xdd,0xe7,0x20,0xd6,0x21,0x3e,0x11,0xef,0x42,
0xb1,0xbb,0x20,0xec,0x19,0x35,0x20,0xf2,0x13,0x04,0xec,0x06,
0xfb,0x01,0xc0,0xfd,0x17,0xcc,0x79,0x35,0x01,0x00,0x02,0x05,
0x17,0x09,0x1c,0x15,0xe3,0xf8,0xea,0x21,0x27,0x13,0xf4,0x3d,
0xac,0xf7,0x14,0x04,0xe0,0x2d,0x11,0x27,0xf7,0xe1,0xdf,0x24,
0x23,0x1c,0x06,0xe5,0xe2,0xea,0xd4,0xed,0x0e,0x1a,0x1a,0x1a,
0x0d,0x7d,0x08,0x1b,0xf0,0x03,0x11,0xfc,0x9f,0xe4,0x15,0xce,
0x0f,0x30,0xfe,0x08,0x14,0xdf,0x13,0x26,0xe4,0x20,0x15,0xe7,
0xd0,0x1a,0x24,0x00,0x12,0x4e,0xdf,0x9d,0xf9,0xf3,0x12,0x16,
0x16,0xf9,0x1e,0x15,0xe2,0x3d,0xde,0x0d,0xf7,0x06,0xf5,0x1b,
0x09,0x0c,0xef,0xe9,0x0c,0xec,0x05,0xf4,0xde,0xf8,0xff,0xe2,
0xf6,0xf8,0xff,0xff,0x00,0x00,0x00,0x09,0x30,0x00,0x00,0x00,
0x07,0x00,0x00,0x00,0x08,0x00,0x00,0x00,0x30,0x00,0x00,0x00,
0x19,0x00,0x00,0x00,0x73,0x65,0x71,0x75,0x65,0x6e,0x74,0x69,
0x61,0x6c,0x2f,0x64,0x65,0x6e,0x73,0x65,0x5f,0x32,0x2f,0x4d,
0x61,0x74,0x4d,0x75,0x6c,0x00,0x00,0x00,0x02,0x00,0x00,0x00,
0x0c,0x00,0x00,0x00,0x12,0x00,0x00,0x00,0x84,0xf9,0xff,0xff,
0x14,0x00,0x00,0x00,0x04,0x00,0x00,0x00,0x01,0x00,0x00,0x00,
0x00,0x00,0x00,0x00,0x00,0x00,0x00,0x00,0x01,0x00,0x00,0x00,
0x66,0x7a,0x65,0x3c,0x76,0xf9,0xff,0xff,0x04,0x00,0x00,0x00,
0x48,0x00,0x00,0x00,0xf5,0xff,0xff,0xff,0x24,0x00,0x00,0x00,
0x25,0x00,0x00,0x00,0x0a,0x00,0x00,0x00,0x24,0x00,0x00,0x00,
0xe8,0xff,0xff,0xff,0x01,0x00,0x00,0x00,0x0d,0x00,0x00,0x00,
0x0d,0x00,0x00,0x00,0x03,0x00,0x00,0x00,0x42,0x00,0x00,0x00,
0x4b,0x00,0x00,0x00,0x2b,0x00,0x00,0x00,0x4c,0x00,0x00,0x00,
0x43,0x00,0x00,0x00,0x1d,0x00,0x00,0x00,0xe3,0xff,0xff,0xff,
0x27,0x00,0x00,0x00,0xae,0xf9,0xff,0xff,0x00,0x00,0x00,0x02,
0x24,0x00,0x00,0x00,0x06,0x00,0x00,0x00,0x08,0x00,0x00,0x00,
0x20,0x00,0x00,0x00,0x0c,0x00,0x00,0x00,0x64,0x65,0x6e,0x73,
0x65,0x5f,0x31,0x2f,0x62,0x69,0x61,0x73,0x00,0x00,0x00,0x00,
0x01,0x00,0x00,0x00,0x12,0x00,0x00,0x00,0x2c,0xfa,0xff,0xff,
0x14,0x00,0x00,0x00,0x04,0x00,0x00,0x00,0x01,0x00,0x00,0x00,
0x00,0x00,0x00,0x00,0x00,0x00,0x00,0x00,0x01,0x00,0x00,0x00,
0xfc,0xc4,0x02,0x3c,0x1e,0xfa,0xff,0xff,0x04,0x00,0x00,0x00,
0xb0,0x01,0x00,0x00,0xc7,0xb1,0x23,0x01,0x12,0xfb,0x2c,0xfb,
0xf7,0x36,0x17,0xdd,0x21,0x43,0xf1,0x09,0xf4,0xe0,0x1b,0xf3,
0x02,0x18,0xfc,0x12,0x0f,0x36,0xe7,0xe3,0x1b,0xe9,0x11,0x18,
0xf7,0xec,0xfc,0x02,0xed,0x13,0x0d,0x0c,0x00,0xf2,0x10,0xd4,
0x14,0xfd,0xec,0xeb,0xf1,0x6d,0xf7,0x09,0x20,0xf2,0x04,0x12,
0xfc,0xc3,0x07,0x3d,0xe7,0xd2,0x1d,0xfa,0x10,0x1d,0xf0,0xd1,
0xe3,0xdd,0xfd,0xad,0x17,0x13,0xeb,0x1e,0x27,0x0d,0xff,0xf2,
0x07,0x08,0x16,0x24,0xeb,0xd9,0xf6,0x1d,0xef,0x2a,0x0f,0xfe,
0x24,0x13,0xeb,0x20,0x00,0xde,0xff,0xeb,0xf6,0x1a,0x1d,0xfb,
0xff,0x14,0x00,0x05,0xf5,0x25,0xee,0x16,0x05,0xf0,0x1d,0xfb,
0x03,0xfc,0xef,0x16,0x03,0xe4,0x11,0x0c,0x04,0xcc,0x3a,0x33,
0xe0,0x15,0xe4,0x08,0xfd,0xc6,0xdc,0x08,0x0a,0x3a,0x19,0x0a,
0xea,0xfb,0xd7,0x08,0xb5,0xc4,0x2e,0x3a,0xa4,0x20,0x09,0xc1,
0x23,0xe6,0xda,0xdd,0x4b,0x10,0x03,0xc9,0x05,0x1e,0x0f,0xd1,
0xf4,0x47,0xf1,0xc5,0x9e,0x81,0x53,0xe1,0x08,0xe3,0x33,0xf0,
0xef,0x0a,0x1d,0xbd,0x11,0x30,0xeb,0xf4,0x08,0xe5,0x1e,0x1c,
0xee,0x11,0xf0,0x39,0xec,0x12,0x15,0xf6,0x0c,0x1e,0xf2,0x13,
0x1f,0x12,0x19,0x14,0xf7,0x0d,0x1c,0xec,0x18,0x13,0x06,0x0c,
0x0b,0xee,0x01,0xf3,0x0c,0x37,0x0d,0xf7,0x0b,0x0f,0xe5,0x09,
0xf3,0xef,0x02,0x0f,0x04,0x04,0xd6,0x11,0x08,0xfa,0xe3,0xec,
0x0e,0xff,0xfb,0xf3,0xea,0x13,0x14,0xf3,0xe4,0xf4,0x1e,0xe4,
0x09,0xfb,0xea,0xf1,0x0d,0xf7,0x18,0x33,0x0a,0x15,0x18,0x09,
0xf1,0x0d,0x07,0xec,0x01,0x2c,0x14,0xf1,0x21,0x02,0xea,0x03,
0x27,0xbf,0xd9,0x1c,0xef,0xf6,0x18,0x1a,0x02,0x0b,0x0b,0xcb,
0xff,0x07,0xe2,0xc1,0xfc,0x35,0xf5,0xed,0x03,0x0e,0x00,0x04,
0xf2,0xdf,0xf2,0x15,0x03,0x07,0xe8,0xf7,0xfb,0x03,0x1c,0xed,
0xe9,0x0b,0x14,0x07,0xe7,0x3a,0x03,0xc5,0xfe,0xd3,0xff,0x38,
0x18,0xd8,0xe3,0xe8,0x17,0x34,0x4b,0x20,0x20,0x29,0xf7,0xf2,
0x06,0xe2,0x09,0xe7,0x0c,0xf5,0x00,0xfa,0x08,0xeb,0x20,0xf0,
0x1c,0x06,0xd3,0x05,0xf4,0x04,0xf2,0x0a,0x18,0xe7,0x21,0x12,
0x03,0x01,0x19,0xfc,0xe7,0x8e,0xfa,0xff,0xe5,0x0f,0x12,0x0c,
0x0d,0xf7,0x08,0xca,0x17,0x14,0x1e,0xf0,0x0f,0xf0,0x0f,0x08,
0xed,0xf3,0x14,0x31,0x07,0x15,0x04,0x02,0x0d,0x18,0xf4,0xf2,
0xfd,0x0d,0xf1,0xe9,0xf8,0xf3,0xfd,0x08,0x1d,0x00,0x18,0xe9,
0xe2,0x1b,0xea,0x09,0xf2,0x26,0xfb,0x1c,0x0b,0xf0,0xdb,0x08,
0x1d,0x05,0xf9,0x19,0x09,0xed,0xf4,0xf1,0xef,0xde,0xf4,0xfa,
0xe7,0xf5,0x00,0x22,0xbe,0xfb,0xff,0xff,0x00,0x00,0x00,0x09,
0x30,0x00,0x00,0x00,0x05,0x00,0x00,0x00,0x08,0x00,0x00,0x00,
0x30,0x00,0x00,0x00,0x19,0x00,0x00,0x00,0x73,0x65,0x71,0x75,
0x65,0x6e,0x74,0x69,0x61,0x6c,0x2f,0x64,0x65,0x6e,0x73,0x65,
0x5f,0x31,0x2f,0x4d,0x61,0x74,0x4d,0x75,0x6c,0x00,0x00,0x00,
0x02,0x00,0x00,0x00,0x12,0x00,0x00,0x00,0x18,0x00,0x00,0x00,
0x4c,0xfc,0xff,0xff,0x18,0x00,0x00,0x00,0x04,0x00,0x00,0x00,
0x01,0x00,0x00,0x00,0x00,0x00,0x00,0x00,0x00,0x00,0x00,0x00,
0x00,0x00,0x00,0x00,0x01,0x00,0x00,0x00,0xd7,0xa5,0x55,0x3c,
0x42,0xfc,0xff,0xff,0x04,0x00,0x00,0x00,0x60,0x00,0x00,0x00,
0x03,0x00,0x00,0x00,0x07,0x00,0x00,0x00,0x10,0x00,0x00,0x00,
0xef,0xff,0xff,0xff,0x18,0x00,0x00,0x00,0xeb,0xff,0xff,0xff,
0x28,0x00,0x00,0x00,0x12,0x00,0x00,0x00,0x25,0x00,0x00,0x00,
0xef,0xff,0xff,0xff,0xf9,0xff,0xff,0xff,0x10,0x00,0x00,0x00,
0xf3,0xff,0xff,0xff,0x12,0x00,0x00,0x00,0x20,0x00,0x00,0x00,
0x1b,0x00,0x00,0x00,0x1b,0x00,0x00,0x00,0x14,0x00,0x00,0x00,
0x11,0x00,0x00,0x00,0x04,0x00,0x00,0x00,0x00,0x00,0x00,0x00,
0xf2,0xff,0xff,0xff,0x0c,0x00,0x00,0x00,0xf7,0xff,0xff,0xff,
0x92,0xfc,0xff,0xff,0x00,0x00,0x00,0x02,0x20,0x00,0x00,0x00,
0x04,0x00,0x00,0x00,0x08,0x00,0x00,0x00,0x1c,0x00,0x00,0x00,
0x0a,0x00,0x00,0x00,0x64,0x65,0x6e,0x73,0x65,0x2f,0x62,0x69,
0x61,0x73,0x00,0x00,0x01,0x00,0x00,0x00,0x18,0x00,0x00,0x00,
0x0c,0xfd,0xff,0xff,0x14,0x00,0x00,0x00,0x04,0x00,0x00,0x00,
0x01,0x00,0x00,0x00,0x00,0x00,0x00,0x00,0x00,0x00,0x00,0x00,
0x01,0x00,0x00,0x00,0x2a,0x38,0x61,0x3c,0xfe,0xfc,0xff,0xff,
0x04,0x00,0x00,0x00,0x88,0x02,0x00,0x00,0x19,0xe2,0x10,0xfc,
0xf4,0xf9,0xe4,0x02,0xf2,0xf8,0x08,0xb8,0xed,0xd5,0xe5,0x0d,
0xd5,0x32,0xe2,0x1f,0x3e,0x22,0x15,0x14,0x24,0xf3,0xe8,0xd7,
0x0a,0xc4,0xec,0xfe,0xee,0xf5,0xeb,0x1c,0x08,0x21,0x9c,0x11,
0x03,0xf4,0x45,0xe6,0x32,0x7f,0xdc,0xe9,0x00,0xe6,0xfc,0xea,
0xfe,0xfc,0xe2,0xf7,0xeb,0xe0,0xda,0xfa,0xfa,0x41,0x2c,0x4b,
0x0e,0x13,0x10,0x14,0xf2,0x2e,0x5d,0x4d,0x56,0xc7,0xed,0xf8,
0xe7,0x01,0xf0,0x23,0x1f,0x1c,0x27,0xf9,0xe6,0xd3,0xe9,0xbd,
0xed,0xd3,0xef,0xd9,0xef,0xf9,0x04,0xfa,0xe9,0xe9,0xdb,0x1f,
0xfc,0x10,0x1f,0x10,0xf9,0x04,0x15,0xf1,0x32,0x10,0x25,0x09,
0x15,0xf1,0x30,0xf1,0xe8,0xe2,0x1c,0x8c,0x1a,0x0f,0x10,0x1c,
0xed,0xfe,0xe3,0xe8,0xcf,0x11,0xe7,0x05,0xf8,0x27,0x37,0xfb,
0xe4,0x13,0xe9,0xe9,0x00,0xb2,0xf5,0xff,0xfa,0x20,0xda,0x0b,
0xf4,0xfe,0xf3,0x09,0xf2,0xca,0x20,0x0c,0x08,0x18,0x18,0x19,
0x23,0x01,0xf8,0xf3,0x2f,0x0e,0x17,0xf3,0x0c,0x3e,0x5b,0x55,
0x07,0xd3,0xe9,0xd5,0xe8,0x15,0x23,0x39,0x16,0x15,0xf8,0x07,
0xe6,0x07,0xdc,0xfa,0xe3,0xfb,0x00,0x22,0x07,0xfb,0xe8,0x23,
0xfd,0x0a,0xfa,0xd1,0xca,0xfa,0x17,0x10,0x1d,0x1b,0x20,0x05,
0xf9,0xc9,0xd5,0x0d,0x01,0xf3,0xd0,0xe8,0x10,0x0f,0xf5,0x08,
0xef,0xed,0x17,0x0c,0xe7,0xee,0xed,0x0c,0x69,0x2e,0x04,0x2d,
0x1d,0x08,0x03,0x35,0x35,0x05,0x2a,0x07,0x1b,0x09,0xe6,0x0d,
0x39,0x08,0x14,0xf1,0x06,0x01,0xfa,0xfa,0xd1,0x2f,0xd7,0xdf,
0xff,0x01,0xdc,0xe5,0xc7,0x06,0xfd,0x22,0x04,0x13,0x0f,0xfe,
0x23,0x11,0xcd,0x18,0xd1,0x08,0x07,0x08,0x1a,0xf0,0xd9,0x08,
0x05,0xf9,0xd4,0x08,0xdc,0xcd,0x15,0x1a,0x01,0xdf,0xda,0x00,
0xe2,0x11,0xfe,0x06,0x2c,0x1b,0xff,0xc7,0xf5,0xd6,0xd9,0xf0,
0xf5,0xf0,0xd8,0xe6,0xaa,0x1e,0x00,0xec,0x3b,0xf8,0x10,0x1d,
0xf2,0xf6,0xe6,0xf1,0x04,0xf2,0x01,0x13,0xd3,0xf7,0x16,0xde,
0x0a,0xff,0xfb,0x1d,0x0b,0x0e,0xf0,0x2e,0x13,0x22,0x16,0x10,
0x09,0x02,0x01,0xf0,0xe3,0xe7,0xe7,0x12,0xfc,0xdf,0xfa,0xea,
0xf7,0xe4,0x11,0x02,0x0b,0x01,0x13,0xf6,0xf9,0x07,0x5a,0xfa,
0xf4,0x0a,0xf6,0x25,0x4a,0x4c,0xdf,0xe9,0x06,0xea,0xd5,0xd4,
0x1e,0xeb,0x0a,0x00,0x01,0x0e,0x31,0x14,0x08,0xe1,0xeb,0xf3,
0x0d,0x02,0x38,0x0c,0x0b,0x1d,0xe7,0xe0,0xeb,0xe2,0x03,0xf7,
0xe0,0x13,0xf4,0x03,0xdf,0x21,0x13,0xed,0x1a,0xf5,0xee,0x25,
0xf5,0x3b,0x1f,0xef,0xdd,0xff,0xf6,0x0b,0x20,0xbd,0xeb,0xff,
0x46,0x3e,0x02,0x0f,0xff,0xf7,0xf8,0xfd,0x0f,0xed,0x2d,0x0a,
0x21,0xef,0x2c,0xe6,0xe6,0xfb,0xec,0xe6,0x1a,0xf3,0x1a,0x12,
0xd8,0x08,0x04,0x1a,0xe5,0x07,0xf1,0x0a,0x15,0x0b,0x17,0xec,
0xf0,0x39,0x0f,0x0a,0x01,0x22,0x1b,0xfd,0x2b,0x01,0xab,0xe7,
0xfa,0x21,0x31,0xf4,0xfa,0xf3,0xe4,0xd5,0xeb,0xe1,0xf7,0xf0,
0x05,0xe4,0xea,0x13,0x14,0xfa,0x1a,0x10,0xff,0xff,0xd9,0x05,
0xfd,0x27,0xc3,0xd7,0xc9,0xb9,0x23,0x09,0x12,0x2b,0x0c,0x09,
0x19,0xea,0x05,0x1f,0x31,0xcc,0x27,0xe8,0xeb,0x0e,0x1b,0xff,
0xf9,0xe6,0xe6,0xf6,0x18,0xd8,0xce,0xdb,0xd9,0x3d,0x0f,0x1f,
0x2c,0x24,0x1c,0x0c,0x11,0xf5,0x1d,0x2d,0x04,0xf7,0xe2,0xee,
0x05,0x1b,0x09,0x1d,0xe1,0x11,0xf3,0x18,0x23,0xe4,0xee,0x0a,
0xd3,0xcf,0xba,0x1a,0x16,0x12,0x2d,0x21,0x21,0x26,0x20,0xdb,
0x14,0x29,0x05,0xd4,0xf8,0xfd,0x27,0x08,0x12,0x1c,0x34,0x29,
0xfd,0x02,0x10,0x26,0xc5,0xe2,0x13,0xfc,0x12,0x23,0x1a,0xf1,
0x13,0x13,0xf9,0xf8,0xe3,0x13,0x10,0xd2,0xfb,0xf0,0x14,0xdd,
0x0c,0xdd,0x13,0xf1,0xe4,0xfd,0x14,0x30,0x11,0xfc,0x22,0x0f,
0x13,0xf0,0x16,0x10,0xef,0xc9,0x19,0xfd,0xfa,0x11,0xf8,0xe5,
0xf5,0xe7,0xce,0xf2,0x4d,0xda,0x08,0x0c,0xb3,0x36,0xe7,0x38,
0xe2,0x13,0x17,0x0f,0xf2,0xf1,0xfc,0xf5,0x76,0xff,0xff,0xff,
0x00,0x00,0x00,0x09,0x2c,0x00,0x00,0x00,0x03,0x00,0x00,0x00,
0x08,0x00,0x00,0x00,0x38,0x00,0x00,0x00,0x17,0x00,0x00,0x00,
0x73,0x65,0x71,0x75,0x65,0x6e,0x74,0x69,0x61,0x6c,0x2f,0x64,
0x65,0x6e,0x73,0x65,0x2f,0x4d,0x61,0x74,0x4d,0x75,0x6c,0x00,
0x02,0x00,0x00,0x00,0x18,0x00,0x00,0x00,0x1b,0x00,0x00,0x00,
0x0c,0x00,0x0c,0x00,0x00,0x00,0x00,0x00,0x04,0x00,0x08,0x00,
0x0c,0x00,0x00,0x00,0x14,0x00,0x00,0x00,0x04,0x00,0x00,0x00,
0x01,0x00,0x00,0x00,0x00,0x00,0x00,0x00,0x00,0x00,0x00,0x00,
0x01,0x00,0x00,0x00,0xc2,0xca,0x30,0x3c,0x00,0x00,0x06,0x00,
0x08,0x00,0x04,0x00,0x06,0x00,0x00,0x00,0x04,0x00,0x00,0x00,
0x08,0x00,0x00,0x00,0xff,0xff,0xff,0xff,0x1b,0x00,0x00,0x00,
0x00,0x00,0x0e,0x00,0x18,0x00,0x08,0x00,0x07,0x00,0x0c,0x00,
0x10,0x00,0x14,0x00,0x0e,0x00,0x00,0x00,0x00,0x00,0x00,0x02,
0x30,0x00,0x00,0x00,0x02,0x00,0x00,0x00,0x08,0x00,0x00,0x00,
0x2c,0x00,0x00,0x00,0x18,0x00,0x00,0x00,0x73,0x65,0x71,0x75,
0x65,0x6e,0x74,0x69,0x61,0x6c,0x2f,0x66,0x6c,0x61,0x74,0x74,
0x65,0x6e,0x2f,0x43,0x6f,0x6e,0x73,0x74,0x00,0x00,0x00,0x00,
0x01,0x00,0x00,0x00,0x02,0x00,0x00,0x00,0x94,0xff,0xff,0xff,
0x14,0x00,0x18,0x00,0x04,0x00,0x00,0x00,0x08,0x00,0x0c,0x00,
0x10,0x00,0x00,0x00,0x00,0x00,0x14,0x00,0x14,0x00,0x00,0x00,
0x40,0x00,0x00,0x00,0x01,0x00,0x00,0x00,0x18,0x00,0x00,0x00,
0x40,0x00,0x00,0x00,0x04,0x00,0x00,0x00,0x02,0x00,0x00,0x00,
0xff,0xff,0xff,0xff,0x1b,0x00,0x00,0x00,0x19,0x00,0x00,0x00,
0x73,0x65,0x72,0x76,0x69,0x6e,0x67,0x5f,0x64,0x65,0x66,0x61,
0x75,0x6c,0x74,0x5f,0x69,0x6e,0x70,0x75,0x74,0x5f,0x31,0x3a,
0x30,0x00,0x00,0x00,0x02,0x00,0x00,0x00,0x01,0x00,0x00,0x00,
0x1b,0x00,0x00,0x00,0xfc,0xff,0xff,0xff,0x04,0x00,0x04,0x00,
0x04,0x00,0x00,0x00
};

#endif //ULTASONIC_FLOW_MODEL_ESP32_H